TRT-100300-EntropyCalibration2
images: 3bf80000
/model.0/conv/Conv_output_0: 3f15984a
/model.0/act/Sigmoid_output_0: 3c010a14
/model.0/act/Mul_output_0: 3e991741
/model.1/conv/Conv_output_0: 3eeabcd5
/model.1/act/Sigmoid_output_0: 3c010a14
/model.1/act/Mul_output_0: 3e978a10
/model.2/cv1/conv/Conv_output_0: 3ef0a532
/model.2/cv1/act/Sigmoid_output_0: 3c010a14
/model.2/cv1/act/Mul_output_0: 3d91d52f
/model.22/cv1/conv/Conv_output_0: 3d52a6a5
/model.23/cv3.1/cv3.1.0/cv3.1.0.1/act/Sigmoid_output_0: 3c00a3da
/model.22/m.0/Concat_output_0: 3d8f4051
/model.23/Concat_10_output_0: 3f204a85
/model.23/Constant_67_output_0_output: 3c810a14
/model.23/Reshape_11_output_0: 3e9f4871
/model.2/Split_output_0: 3db9837d
/model.23/Reshape_15_output_0: 3e1d4449
/model.23/Split_1_output_1: 3e02be0a
/model.23/cv2.2/cv2.2.1/act/Sigmoid_output_0: 3c010a14
/model.2/Split_output_1: 3d6d362e
/model.2/m.0/cv1/conv/Conv_output_0: 3d70e9f5
/model.2/m.0/cv1/act/Sigmoid_output_0: 3c00b676
/model.2/m.0/cv1/act/Mul_output_0: 3d2553a4
/model.2/m.0/cv2/conv/Conv_output_0: 3dbc1233
/model.2/m.0/cv2/act/Sigmoid_output_0: 3c010a0d
/model.2/m.0/cv2/act/Mul_output_0: 3d915ee0
/model.2/m.0/Add_output_0: 3dd69f61
/model.2/Concat_output_0: 3dc03d3b
/model.2/cv2/conv/Conv_output_0: 3df9ea7b
/model.2/cv2/act/Sigmoid_output_0: 3c00f9f3
/model.2/cv2/act/Mul_output_0: 3d259a49
/model.3/conv/Conv_output_0: 3da059c8
/model.3/act/Sigmoid_output_0: 3c00ac82
/model.3/act/Mul_output_0: 3ce84496
/model.4/cv1/conv/Conv_output_0: 3da5cced
/model.4/cv1/act/Sigmoid_output_0: 3bfa97bb
/model.4/cv1/act/Mul_output_0: 3ce6f9fe
ONNXTRT_Broadcast_365_output: 3e810a14
/model.23/Split_1_output_0: 3de10cd6
/model.23/Sub_output_0: 3f1f6518
/model.23/cv3.1/cv3.1.1/cv3.1.1.1/act/Sigmoid_output_0: 3c010a14
/model.23/Slice_1_output_0: 3da8bf07
/model.23/cv3.1/cv3.1.1/cv3.1.1.0/act/Mul_output_0: 3cd1d4c7
/model.4/Split_output_0: 3ce726e8
/model.23/Reshape_16_output_0: 3e1d4449
/model.23/Range_4_output_0: 3e193bf8
ONNXTRT_Broadcast_353_output: 3b810a14
/model.4/Split_output_1: 3cb09b97
/model.4/m.0/cv1/conv/Conv_output_0: 3cd8a25a
/model.4/m.0/cv1/act/Sigmoid_output_0: 3bf90047
/model.4/m.0/cv1/act/Mul_output_0: 3c9a196f
/model.4/m.0/cv2/conv/Conv_output_0: 3d286831
/model.4/m.0/cv2/act/Sigmoid_output_0: 3bffb4fc
/model.4/m.0/cv2/act/Mul_output_0: 3d0fa7a7
/model.4/m.0/Add_output_0: 3d2411f1
/model.4/Concat_output_0: 3d0f8771
/model.4/cv2/conv/Conv_output_0: 3d56369f
/model.4/cv2/act/Sigmoid_output_0: 3bfdf500
/model.4/cv2/act/Mul_output_0: 3c90c396
/model.5/conv/Conv_output_0: 3d7dff73
/model.5/act/Sigmoid_output_0: 3c009cc6
/model.5/act/Mul_output_0: 3c9a4995
/model.6/cv1/conv/Conv_output_0: 3daa4891
/model.6/cv1/act/Sigmoid_output_0: 3c00c71a
/model.6/cv1/act/Mul_output_0: 3cb298cc
/model.23/Concat_20_output_0: 3e1d4449
/model.22/Split_output_0: 3c9021c1
ONNXTRT_Broadcast_499_output: 3e810a14
/model.23/Unsqueeze_4_output_0: 3f204a85
/model.23/cv3.1/cv3.1.0/cv3.1.0.1/act/Mul_output_0: 3d10ec84
/model.21/Concat_output_0: 3c80e1f4
/model.6/Split_output_0: 3cb298cc
/model.22/m.0/cv2/act/Mul_output_0: 3cb13f30
/model.23/dfl/Softmax_output_0: 3bd87bbe
/model.23/Range_2_output_0: 3e9d4449
/model.6/Split_output_1: 3ca50305
/model.6/m.0/cv1/conv/Conv_output_0: 3d21ae77
/model.6/m.0/cv2/conv/Conv_output_0: 3d6ca9ba
/model.6/m.0/cv1/act/Sigmoid_output_0: 3bfb1916
/model.6/m.0/cv2/act/Sigmoid_output_0: 3c0067e4
/model.6/m.0/cv1/act/Mul_output_0: 3cc017dc
/model.6/m.0/cv2/act/Mul_output_0: 3d1142a3
/model.6/m.0/m/m.0/cv1/conv/Conv_output_0: 3d876bf7
/model.6/m.0/m/m.0/cv1/act/Sigmoid_output_0: 3c004e16
/model.6/m.0/m/m.0/cv1/act/Mul_output_0: 3cb24417
/model.6/m.0/m/m.0/cv2/conv/Conv_output_0: 3d25f02b
/model.6/m.0/m/m.0/cv2/act/Sigmoid_output_0: 3bffd61a
/model.6/m.0/m/m.0/cv2/act/Mul_output_0: 3cb03e09
/model.6/m.0/m/m.0/Add_output_0: 3d19c0e0
/model.6/m.0/m/m.1/cv1/conv/Conv_output_0: 3d38c895
/model.6/m.0/m/m.1/cv1/act/Sigmoid_output_0: 3c00425f
/model.6/m.0/m/m.1/cv1/act/Mul_output_0: 3c7346c4
/model.6/m.0/m/m.1/cv2/conv/Conv_output_0: 3d9a10a5
/model.6/m.0/m/m.1/cv2/act/Sigmoid_output_0: 3c00d75d
/model.6/m.0/m/m.1/cv2/act/Mul_output_0: 3d407207
/model.6/m.0/m/m.1/Add_output_0: 3d8c500e
/model.6/m.0/Concat_output_0: 3d401cf7
/model.6/m.0/cv3/conv/Conv_output_0: 3d77a008
/model.6/m.0/cv3/act/Sigmoid_output_0: 3c00e120
/model.6/m.0/cv3/act/Mul_output_0: 3d0137f1
/model.6/Concat_output_0: 3cc1cb9a
/model.6/cv2/conv/Conv_output_0: 3d86386b
/model.6/cv2/act/Sigmoid_output_0: 3c010538
/model.6/cv2/act/Mul_output_0: 3c87eeae
/model.7/conv/Conv_output_0: 3d796124
/model.7/act/Sigmoid_output_0: 3c00d90e
/model.7/act/Mul_output_0: 3c99b053
/model.8/cv1/conv/Conv_output_0: 3da13b1f
/model.8/cv1/act/Sigmoid_output_0: 3c00e611
/model.8/cv1/act/Mul_output_0: 3d1031cf
/model.23/Unsqueeze_10_output_0: 3e1d4449
/model.23/Concat_2_output_0: 3db9b4fe
/model.23/Add_6_output_0: 3e1d4449
/model.23/Concat_6_output_0: 3df8c9ba
/model.22/m.0/m/m.1/cv1/conv/Conv_output_0: 3d755986
/model.23/Reshape_2_output_0: 3db9b4fe
/model.8/Split_output_0: 3d1031cf
/model.22/m.0/cv3/act/Mul_output_0: 3ce6bbd3
/model.22/m.0/m/m.0/cv2/act/Sigmoid_output_0: 3c00dad8
/model.23/cv3.2/cv3.2.2/Conv_output_0: 3dbb55e1
/model.8/Split_output_1: 3cd34615
/model.8/m.0/cv1/conv/Conv_output_0: 3d299444
/model.8/m.0/cv2/conv/Conv_output_0: 3d3816dd
/model.8/m.0/cv1/act/Sigmoid_output_0: 3bffc48e
/model.8/m.0/cv2/act/Sigmoid_output_0: 3c00e03f
/model.8/m.0/cv1/act/Mul_output_0: 3cc0c4db
/model.8/m.0/cv2/act/Mul_output_0: 3cb19d2d
/model.8/m.0/m/m.0/cv1/conv/Conv_output_0: 3d6aa7a6
/model.8/m.0/m/m.0/cv1/act/Sigmoid_output_0: 3bfe6487
/model.8/m.0/m/m.0/cv1/act/Mul_output_0: 3c9069ef
/model.8/m.0/m/m.0/cv2/conv/Conv_output_0: 3d659c9c
/model.8/m.0/m/m.0/cv2/act/Sigmoid_output_0: 3c00efe6
/model.8/m.0/m/m.0/cv2/act/Mul_output_0: 3cc124e3
/model.8/m.0/m/m.0/Add_output_0: 3d3f5d5f
/model.8/m.0/m/m.1/cv1/conv/Conv_output_0: 3d68cf35
/model.8/m.0/m/m.1/cv1/act/Sigmoid_output_0: 3c005647
/model.8/m.0/m/m.1/cv1/act/Mul_output_0: 3ca4de4d
/model.8/m.0/m/m.1/cv2/conv/Conv_output_0: 3d91c6c6
/model.8/m.0/m/m.1/cv2/act/Sigmoid_output_0: 3c010886
/model.8/m.0/m/m.1/cv2/act/Mul_output_0: 3d68fef4
/model.8/m.0/m/m.1/Add_output_0: 3d8d9530
/model.8/m.0/Concat_output_0: 3d68d622
/model.8/m.0/cv3/conv/Conv_output_0: 3d692413
/model.8/m.0/cv3/act/Sigmoid_output_0: 3c0051b5
/model.8/m.0/cv3/act/Mul_output_0: 3ce651fb
/model.8/Concat_output_0: 3cd1c023
/model.8/cv2/conv/Conv_output_0: 3d7b645a
/model.8/cv2/act/Sigmoid_output_0: 3c008f6a
/model.8/cv2/act/Mul_output_0: 3d00c955
/model.9/cv1/conv/Conv_output_0: 3d4c9049
/model.9/cv1/act/Sigmoid_output_0: 3c008a9a
/model.9/cv1/act/Mul_output_0: 3d3f973f
/model.9/m/MaxPool_output_0: 3d3f973f
/model.9/m_1/MaxPool_output_0: 3d3f973f
/model.9/m_2/MaxPool_output_0: 3d3f973f
/model.9/Concat_output_0: 3d4c7911
/model.9/cv2/conv/Conv_output_0: 3db0d18c
/model.9/cv2/act/Sigmoid_output_0: 3bffded6
/model.9/cv2/act/Mul_output_0: 3c80a95a
/model.10/cv1/conv/Conv_output_0: 3d9f08d8
/model.10/cv1/act/Sigmoid_output_0: 3c00d3b3
/model.10/cv1/act/Mul_output_0: 3d1168d2
/model.23/cv3.2/cv3.2.1/cv3.2.1.1/conv/Conv_output_0: 3dba20a9
/model.23/cv3.2/cv3.2.1/cv3.2.1.0/act/Sigmoid_output_0: 3bf4829a
/model.23/cv3.2/cv3.2.0/cv3.2.0.0/act/Sigmoid_output_0: 3c004e52
/model.23/cv3.2/cv3.2.1/cv3.2.1.0/conv/Conv_output_0: 3cf851ef
/model.23/Concat_23_output_0: 3e810a14
/model.23/cv3.2/cv3.2.0/cv3.2.0.1/act/Mul_output_0: 3ce5aa6e
/model.10/Split_output_0: 3d1168d2
/model.22/cv1/act/Sigmoid_output_0: 3c00a58a
/model.23/cv2.2/cv2.2.2/Conv_output_0: 3db0a5ec
/model.23/cv2.2/cv2.2.1/act/Mul_output_0: 3e11aa37
/model.10/Split_output_1: 3d00e7b0
/model.22/m.0/m/m.1/cv2/act/Sigmoid_output_0: 3c010944
/model.23/dfl/conv/Conv_output_0: 3daabf89
/model.10/m/m.0/attn/qkv/conv/Conv_output_0: 3d40b4d2
/model.23/Unsqueeze_12_output_0: 3f204a85
/model.23/cv3.2/cv3.2.0/cv3.2.0.1/act/Sigmoid_output_0: 3c006ec4
(Unnamed Layer* 650) [Constant]_output: 0
/model.23/cv3.2/cv3.2.0/cv3.2.0.1/conv/Conv_output_0: 3d4ef747
/model.23/Concat_22_output_0: 3f204a85
/model.23/cv3.2/cv3.2.0/cv3.2.0.0/act/Mul_output_0: 3d0f2563
/model.23/cv2.2/cv2.2.0/act/Mul_output_0: 3d102c10
/model.23/Add_11_output_0: 3fa05a92
/model.23/Add_10_output_0: 3f221762
/model.23/cv2.2/cv2.2.0/act/Sigmoid_output_0: 3c00ffc5
/model.23/Div_1_output_0: 3f205a92
/model.22/cv2/conv/Conv_output_0: 3d83ee06
/model.23/Squeeze_2_output_0_output: 3e810a14
/model.23/Slice_output_0: 3daac296
/model.23/cv2.1/cv2.1.1/conv/Conv_output_0: 3e4dcf62
/model.23/cv3.2/cv3.2.0/cv3.2.0.0/conv/Conv_output_0: 3d2f90ed
/model.10/m/m.0/attn/Reshape_output_0: 3d40b4d2
/model.23/cv2.2/cv2.2.0/conv/Conv_output_0: 3d8da3e4
/model.22/cv2/act/Sigmoid_output_0: 3c010967
ONNXTRT_ShapeShuffle_246_output: 3c010a14
/model.22/Concat_output_0: 3cb145ac
/model.23/Sigmoid_output_0: 3a24959e
/model.22/m.0/cv3/conv/Conv_output_0: 3d92e9e9
/model.10/m/m.0/attn/Split_output_0: 3d21ba83
/model.23/Transpose_1_output_0: 3e810a14
/model.22/m.0/cv3/act/Sigmoid_output_0: 3c00b679
/model.23/cv2.1/cv2.1.1/act/Mul_output_0: 3dca23e6
/model.10/m/m.0/attn/Split_output_1: 3d22bcac
/model.23/Unsqueeze_9_output_0: 3e1d4449
/model.23/Reshape_1_output_0: 3ddf6462
/model.23/Unsqueeze_3_output_0: 3f204a85
/model.10/m/m.0/attn/Split_output_2: 3d359d22
/model.10/m/m.0/attn/Transpose_output_0: 3d21ba83
/model.10/m/m.0/attn/Reshape_2_output_0: 3d359d22
/model.10/m/m.0/attn/MatMul_output_0: 3f18131a
/model.10/m/m.0/attn/pe/conv/Conv_output_0: 3d1b4594
/model.10/m/m.0/attn/Constant_6_output_0_output: 3ab67d3d
ONNXTRT_Broadcast_output: 3ab67d3d
/model.10/m/m.0/attn/Mul_1_output_0: 3dd710e4
/model.10/m/m.0/attn/Softmax_output: 3a3b98d1
/model.10/m/m.0/attn/Softmax_output_0: 3a3b98d1
/model.23/Reshape_12_output_0: 3e9f4871
/model.22/m.0/m/m.1/cv2/act/Mul_output_0: 3d249a13
/model.10/m/m.0/attn/Transpose_1_output_0: 3a3b98d1
/model.10/m/m.0/attn/MatMul_1_output_0: 3d06ebec
/model.10/m/m.0/attn/Reshape_1_output_0: 3d06ebec
/model.10/m/m.0/attn/Add_output_0: 3cdb5870
/model.10/m/m.0/attn/proj/conv/Conv_output_0: 3d064b73
/model.10/m/m.0/Add_output_0: 3d497322
/model.10/m/m.0/ffn/ffn.0/conv/Conv_output_0: 3d5cc48c
/model.10/m/m.0/ffn/ffn.0/act/Sigmoid_output_0: 3bff64c1
/model.10/m/m.0/ffn/ffn.0/act/Mul_output_0: 3c5b6520
/model.10/m/m.0/ffn/ffn.1/conv/Conv_output_0: 3cbc6f71
/model.10/m/m.0/Add_1_output_0: 3d49cdc9
/model.10/Concat_output_0: 3d112df2
/model.10/cv2/conv/Conv_output_0: 3d43cd02
/model.10/cv2/act/Sigmoid_output_0: 3bfa95f6
/model.10/cv2/act/Mul_output_0: 3b10b723
/model.11/Resize_output_0: 3b10b723
/model.12/Concat_output_0: 3c523754
/model.13/cv1/conv/Conv_output_0: 3d40effc
/model.13/cv1/act/Sigmoid_output_0: 3bfe9228
/model.13/cv1/act/Mul_output_0: 3c8056b4
/model.23/cv2.1/cv2.1.2/Conv_output_0: 3db4ec25
/model.22/Split_output_1: 3c905062
/model.23/Add_7_output_0: 3e1d4449
/model.22/m.0/cv1/conv/Conv_output_0: 3cd32395
/model.23/Transpose_output_0: 3f204a85
/model.23/Sub_1_output_0: 3e1a8280
/model.13/Split_output_0: 3c90595e
/model.23/dfl/Transpose_output_0: 3de10cd6
ONNXTRT_Broadcast_355_output: 3b810a14
/model.23/Reshape_17_output_0: 3e1d4449
/model.13/Split_output_1: 3c5c63f3
/model.13/m.0/cv1/conv/Conv_output_0: 3d66d881
/model.13/m.0/cv1/act/Sigmoid_output_0: 3c00ae05
/model.13/m.0/cv1/act/Mul_output_0: 3c883406
/model.13/m.0/cv2/conv/Conv_output_0: 3d4b76df
/model.13/m.0/cv2/act/Sigmoid_output_0: 3c0066d3
/model.13/m.0/cv2/act/Mul_output_0: 3c9acce9
/model.13/m.0/Add_output_0: 3d24c097
/model.13/Concat_output_0: 3c99ebbc
/model.13/cv2/conv/Conv_output_0: 3d2e8cb6
/model.13/cv2/act/Sigmoid_output_0: 3bfd197a
/model.13/cv2/act/Mul_output_0: 3c156717
/model.14/Resize_output_0: 3c156717
/model.15/Concat_output_0: 3c52572b
/model.16/cv1/conv/Conv_output_0: 3d2ba5ff
/model.16/cv1/act/Sigmoid_output_0: 3bf8a54b
/model.16/cv1/act/Mul_output_0: 3c72ae43
/model.23/cv3.2/cv3.2.1/cv3.2.1.1/act/Sigmoid_output_0: 3c010a00
/model.22/m.0/m/m.1/Add_output_0: 3d8f4051
/model.22/cv1/act/Mul_output_0: 3c9021c1
/model.22/m.0/cv2/conv/Conv_output_0: 3d08a59c
/model.23/dfl/Reshape_1_output_0: 3daabf89
/model.23/cv3.1/cv3.1.1/cv3.1.1.0/act/Sigmoid_output_0: 3c008bd1
/model.16/Split_output_0: 3c87ac55
/model.23/cv3.1/cv3.1.1/cv3.1.1.0/conv/Conv_output_0: 3d20b7ac
/model.23/Expand_3_output_0: 3e9f4871
/model.23/Expand_2_output_0: 3e9f4871
/model.16/Split_output_1: 3c244342
/model.16/m.0/cv1/conv/Conv_output_0: 3d16e1e1
/model.16/m.0/cv1/act/Sigmoid_output_0: 3bfb640b
/model.16/m.0/cv1/act/Mul_output_0: 3cc09d6d
/model.16/m.0/cv2/conv/Conv_output_0: 3d3fd121
/model.16/m.0/cv2/act/Sigmoid_output_0: 3bff6c9c
/model.16/m.0/cv2/act/Mul_output_0: 3ca45fef
/model.16/m.0/Add_output_0: 3cff2a63
/model.16/Concat_output_0: 3cc0c87f
/model.16/cv2/conv/Conv_output_0: 3d46a6e8
/model.16/cv2/act/Sigmoid_output_0: 3bfa7750
/model.16/cv2/act/Mul_output_0: 3c9a0e15
/model.17/conv/Conv_output_0: 3d44f0c8
/model.23/cv2.0/cv2.0.0/conv/Conv_output_0: 3d98e2ec
/model.23/cv3.0/cv3.0.0/cv3.0.0.0/conv/Conv_output_0: 3d137928
/model.17/act/Sigmoid_output_0: 3bfd8e63
/model.23/cv2.0/cv2.0.0/act/Sigmoid_output_0: 3c00e58d
/model.23/cv3.0/cv3.0.0/cv3.0.0.0/act/Sigmoid_output_0: 3c0085af
/model.17/act/Mul_output_0: 3c8f8572
/model.23/cv2.0/cv2.0.0/act/Mul_output_0: 3cb1c70c
/model.23/cv3.0/cv3.0.0/cv3.0.0.0/act/Mul_output_0: 3d02f10b
/model.18/Concat_output_0: 3c491843
/model.23/cv2.0/cv2.0.1/conv/Conv_output_0: 3e8566c5
/model.23/cv3.0/cv3.0.0/cv3.0.0.1/conv/Conv_output_0: 3d49459b
/model.19/cv1/conv/Conv_output_0: 3d338a4e
/model.23/cv2.0/cv2.0.1/act/Sigmoid_output_0: 3c010a14
/model.23/cv3.0/cv3.0.0/cv3.0.0.1/act/Sigmoid_output_0: 3c005dcb
/model.19/cv1/act/Sigmoid_output_0: 3c005a69
/model.23/cv2.0/cv2.0.1/act/Mul_output_0: 3e1c4eaf
/model.23/cv3.0/cv3.0.0/cv3.0.0.1/act/Mul_output_0: 3cc05ad3
/model.19/cv1/act/Mul_output_0: 3c72b0a0
/model.23/cv2.0/cv2.0.2/Conv_output_0: 3de9ab7d
/model.23/cv3.0/cv3.0.1/cv3.0.1.0/conv/Conv_output_0: 3d4e3395
/model.22/m.0/m/m.0/cv2/act/Mul_output_0: 3cb2f272
/model.23/cv3.1/cv3.1.1/cv3.1.1.1/conv/Conv_output_0: 3e25ef04
ONNXTRT_ShapeShuffle_350_output: 3c010a14
/model.23/cv3.2/cv3.2.1/cv3.2.1.1/act/Mul_output_0: 3dc3183c
/model.23/Add_3_output_0: 3e9f4871
/model.22/m.0/m/m.0/Add_output_0: 3d3e4236
/model.19/Split_output_0: 3c99b849
ONNXTRT_Broadcast_492_output: 3c810a14
/model.22/m.0/cv1/act/Mul_output_0: 3c40108a
/model.22/m.0/m/m.0/cv1/conv/Conv_output_0: 3d4147f4
/model.19/Split_output_1: 3c1ed497
/model.23/cv3.0/cv3.0.1/cv3.0.1.0/act/Sigmoid_output_0: 3c00b870
/model.19/m.0/cv1/conv/Conv_output_0: 3d3b6408
/model.23/cv3.0/cv3.0.1/cv3.0.1.0/act/Mul_output_0: 3d256152
/model.19/m.0/cv1/act/Sigmoid_output_0: 3c00808e
/model.23/cv3.0/cv3.0.1/cv3.0.1.1/conv/Conv_output_0: 3e20edfb
/model.19/m.0/cv1/act/Mul_output_0: 3c87a063
/model.23/cv3.0/cv3.0.1/cv3.0.1.1/act/Sigmoid_output_0: 3c010a14
/model.19/m.0/cv2/conv/Conv_output_0: 3db5fc76
/model.23/cv3.0/cv3.0.1/cv3.0.1.1/act/Mul_output_0: 3dc38151
/model.19/m.0/cv2/act/Sigmoid_output_0: 3c00e68e
/model.23/cv3.0/cv3.0.2/Conv_output_0: 3e049d0a
/model.19/m.0/cv2/act/Mul_output_0: 3d00042b
/model.23/Concat_output_0: 3deec3aa
/model.19/m.0/Add_output_0: 3d4f399e
/model.23/cv3.2/cv3.2.1/cv3.2.1.0/act/Mul_output_0: 3cb06797
/model.23/cv3.1/cv3.1.0/cv3.1.0.1/conv/Conv_output_0: 3d470a50
/model.19/Concat_output_0: 3cd21e2e
/model.22/m.0/m/m.0/cv1/act/Sigmoid_output_0: 3bfe5d7d
ONNXTRT_Broadcast_259_output: 3b810a14
/model.22/m.0/cv2/act/Sigmoid_output_0: 3bff067d
/model.19/cv2/conv/Conv_output_0: 3d80cd35
/model.23/Add_5_output_0: 3e010a14
ONNXTRT_Broadcast_269_output: 3e010a14
(Unnamed Layer* 516) [Constant]_output: 0
/model.22/m.0/cv1/act/Sigmoid_output_0: 3be8abbb
/model.19/cv2/act/Sigmoid_output_0: 3c00ce75
output0: 40a0b4b5
/model.23/ConstantOfShape_2_output_0: 0
/model.23/Expand_4_output_0: 3e1d4449
/model.23/Constant_14_output_0_output: 0
/model.23/Constant_15_output_0_output: 3c010a14
/model.23/Squeeze_1_output_0_output: 3e010a14
/model.22/m.0/m/m.1/cv1/act/Mul_output_0: 3c736e94
/model.23/Reshape_10_output_0: 3e9f4871
/model.23/cv2.1/cv2.1.1/act/Sigmoid_output_0: 3c010a14
/model.23/cv3.1/cv3.1.2/Conv_output_0: 3ddf6462
/model.23/Expand_5_output_0: 3e1d4449
/model.23/Concat_1_output_0: 3ddf6462
/model.23/Range_output_0: 3f1f4871
ONNXTRT_ShapeShuffle_151_output: 3c010a14
/model.23/Expand_1_output_0: 3f204a85
/model.22/m.0/m/m.0/cv1/act/Mul_output_0: 3c9ad42f
/model.22/m.0/m/m.1/cv2/conv/Conv_output_0: 3d92f156
/model.23/Concat_24_output_0: 3f205a92
/model.23/Unsqueeze_7_output_0: 3e9f4871
/model.23/cv3.1/cv3.1.1/cv3.1.1.1/act/Mul_output_0: 3e1411cc
/model.23/dfl/Reshape_output_0: 3de10cd6
/model.23/Range_1_output_0: 3f1f4871
ONNXTRT_ShapeShuffle_161_output: 3c010a14
/model.23/cv2.2/cv2.2.1/conv/Conv_output_0: 3e1ebfb2
/model.19/cv2/act/Mul_output_0: 3ca55147
/model.23/Reshape_output_0: 3deec3aa
/model.23/Constant_16_output_0_output: 3b810a14
ONNXTRT_Broadcast_165_output: 3b810a14
/model.23/Add_output_0: 3f204a85
ONNXTRT_Broadcast_167_output: 3b810a14
/model.23/Add_1_output_0: 3f204a85
ONNXTRT_ShapeShuffle_340_output: 3c010a14
ONNXTRT_ShapeShuffle_358_output: 0
/model.20/conv/Conv_output_0: 3d4367ce
/model.23/cv2.1/cv2.1.0/conv/Conv_output_0: 3d8da364
/model.23/cv3.1/cv3.1.0/cv3.1.0.0/conv/Conv_output_0: 3d3d4b52
(Unnamed Layer* 382) [Constant]_output: 0
ONNXTRT_ShapeShuffle_170_output: 0
/model.23/ConstantOfShape_output_0: 0
/model.23/Reshape_7_output_0: 3f204a85
/model.22/m.0/m/m.0/cv2/conv/Conv_output_0: 3d837e4e
/model.23/Add_8_output_0: 3e810a14
ONNXTRT_ShapeShuffle_264_output: 0
/model.23/Reshape_5_output_0: 3f204a85
/model.23/Reshape_6_output_0: 3f204a85
/model.20/act/Sigmoid_output_0: 3c001294
/model.23/cv2.1/cv2.1.0/act/Sigmoid_output_0: 3c00b8b1
/model.23/cv3.1/cv3.1.0/cv3.1.0.0/act/Sigmoid_output_0: 3c00ba56
/model.23/Squeeze_output_0_output: 3d810a14
ONNXTRT_Broadcast_175_output: 3d810a14
/model.23/Add_2_output_0: 3d810a14
/model.23/Range_3_output_0: 3e9d4449
/model.20/act/Mul_output_0: 3cb2273d
/model.23/cv2.1/cv2.1.0/act/Mul_output_0: 3d10f699
/model.23/cv3.1/cv3.1.0/cv3.1.0.0/act/Mul_output_0: 3d10fcfc
/model.23/Mul_5_output_0: 40a0b4b5
/model.23/Unsqueeze_6_output_0: 3e9f4871
/model.23/ConstantOfShape_1_output_0: 0
/model.22/m.0/m/m.1/cv1/act/Sigmoid_output_0: 3bfed6e5
/model.23/Concat_15_output_0: 3e9f4871
ONNXTRT_Broadcast_261_output: 3b810a14
/model.22/cv2/act/Mul_output_0: 3cd16b39
/model.23/Range_5_output_0: 3e193bf8
/model.23/Add_4_output_0: 3e9f4871
ONNXTRT_ShapeShuffle_256_output: 3c010a14
/model.23/Expand_output_0: 3f204a85
/model.23/dfl/Softmax_output: 3bd87bbe
